unsigned char converted_model_tflite[] = {0x1c, 
0x00, 0x00, 0x00, 0x54, 0x46, 0x4c, 0x33, 0x14, 
0x00, 0x20, 0x00, 0x1c, 0x00, 0x18, 0x00, 0x14, 
0x00, 0x10, 0x00, 0x0c, 0x00, 0x00, 0x00, 0x08, 
0x00, 0x04, 0x00, 0x14, 0x00, 0x00, 0x00, 0x1c, 
0x00, 0x00, 0x00, 0x84, 0x00, 0x00, 0x00, 0xdc, 
0x00, 0x00, 0x00, 0x14, 0x03, 0x00, 0x00, 0x24, 
0x03, 0x00, 0x00, 0x58, 0x07, 0x00, 0x00, 0x03, 
0x00, 0x00, 0x00, 0x01, 0x00, 0x00, 0x00, 0x04, 
0x00, 0x00, 0x00, 0xa2, 0xfc, 0xff, 0xff, 0x0c, 
0x00, 0x00, 0x00, 0x1c, 0x00, 0x00, 0x00, 0x38, 
0x00, 0x00, 0x00, 0x0f, 0x00, 0x00, 0x00, 0x73, 
0x65, 0x72, 0x76, 0x69, 0x6e, 0x67, 0x5f, 0x64, 
0x65, 0x66, 0x61, 0x75, 0x6c, 0x74, 0x00, 0x01, 
0x00, 0x00, 0x00, 0x04, 0x00, 0x00, 0x00, 0x98, 
0xff, 0xff, 0xff, 0x07, 0x00, 0x00, 0x00, 0x04, 
0x00, 0x00, 0x00, 0x07, 0x00, 0x00, 0x00, 0x64, 
0x65, 0x6e, 0x73, 0x65, 0x5f, 0x31, 0x00, 0x01, 
0x00, 0x00, 0x00, 0x04, 0x00, 0x00, 0x00, 0x6e, 
0xfd, 0xff, 0xff, 0x04, 0x00, 0x00, 0x00, 0x0b, 
0x00, 0x00, 0x00, 0x64, 0x65, 0x6e, 0x73, 0x65, 
0x5f, 0x69, 0x6e, 0x70, 0x75, 0x74, 0x00, 0x02, 
0x00, 0x00, 0x00, 0x34, 0x00, 0x00, 0x00, 0x04, 
0x00, 0x00, 0x00, 0xdc, 0xff, 0xff, 0xff, 0x0a, 
0x00, 0x00, 0x00, 0x04, 0x00, 0x00, 0x00, 0x13, 
0x00, 0x00, 0x00, 0x43, 0x4f, 0x4e, 0x56, 0x45, 
0x52, 0x53, 0x49, 0x4f, 0x4e, 0x5f, 0x4d, 0x45, 
0x54, 0x41, 0x44, 0x41, 0x54, 0x41, 0x00, 0x08, 
0x00, 0x0c, 0x00, 0x08, 0x00, 0x04, 0x00, 0x08, 
0x00, 0x00, 0x00, 0x09, 0x00, 0x00, 0x00, 0x04, 
0x00, 0x00, 0x00, 0x13, 0x00, 0x00, 0x00, 0x6d, 
0x69, 0x6e, 0x5f, 0x72, 0x75, 0x6e, 0x74, 0x69, 
0x6d, 0x65, 0x5f, 0x76, 0x65, 0x72, 0x73, 0x69, 
0x6f, 0x6e, 0x00, 0x0b, 0x00, 0x00, 0x00, 0x34, 
0x02, 0x00, 0x00, 0x2c, 0x02, 0x00, 0x00, 0x18, 
0x02, 0x00, 0x00, 0xb0, 0x01, 0x00, 0x00, 0x00, 
0x01, 0x00, 0x00, 0xa0, 0x00, 0x00, 0x00, 0x98, 
0x00, 0x00, 0x00, 0x90, 0x00, 0x00, 0x00, 0x88, 
0x00, 0x00, 0x00, 0x68, 0x00, 0x00, 0x00, 0x04, 
0x00, 0x00, 0x00, 0x12, 0xfe, 0xff, 0xff, 0x04, 
0x00, 0x00, 0x00, 0x54, 0x00, 0x00, 0x00, 0x0c, 
0x00, 0x00, 0x00, 0x08, 0x00, 0x0e, 0x00, 0x08, 
0x00, 0x04, 0x00, 0x08, 0x00, 0x00, 0x00, 0x10, 
0x00, 0x00, 0x00, 0x24, 0x00, 0x00, 0x00, 0x00, 
0x00, 0x06, 0x00, 0x08, 0x00, 0x04, 0x00, 0x06, 
0x00, 0x00, 0x00, 0x04, 0x00, 0x00, 0x00, 0x00, 
0x00, 0x00, 0x00, 0x00, 0x00, 0x0a, 0x00, 0x10, 
0x00, 0x0c, 0x00, 0x08, 0x00, 0x04, 0x00, 0x0a, 
0x00, 0x00, 0x00, 0x02, 0x00, 0x00, 0x00, 0x02, 
0x00, 0x00, 0x00, 0x04, 0x00, 0x00, 0x00, 0x06, 
0x00, 0x00, 0x00, 0x32, 0x2e, 0x31, 0x33, 0x2e, 
0x30, 0x00, 0x00, 0x72, 0xfe, 0xff, 0xff, 0x04, 
0x00, 0x00, 0x00, 0x10, 0x00, 0x00, 0x00, 0x31, 
0x2e, 0x31, 0x34, 0x2e, 0x30, 0x00, 0x00, 0x00, 
0x00, 0x00, 0x00, 0x00, 0x00, 0x00, 0x00, 0x5c, 
0xfa, 0xff, 0xff, 0x60, 0xfa, 0xff, 0xff, 0x64, 
0xfa, 0xff, 0xff, 0x9a, 0xfe, 0xff, 0xff, 0x04, 
0x00, 0x00, 0x00, 0x50, 0x00, 0x00, 0x00, 0xfa, 
0x5e, 0xc8, 0x3e, 0x7b, 0xc3, 0xee, 0xbe, 0xed, 
0xc8, 0x49, 0x3f, 0xe9, 0x35, 0xec, 0xbe, 0x22, 
0x24, 0x9a, 0xbe, 0xf8, 0x28, 0x44, 0xbe, 0x7d, 
0x9f, 0xf8, 0x3e, 0xa1, 0xab, 0xc5, 0x3e, 0xc0, 
0xa8, 0x0e, 0xbf, 0x42, 0xff, 0x84, 0xbe, 0xc3, 
0x1d, 0x4c, 0xbf, 0x96, 0x9b, 0x27, 0xbf, 0x24, 
0x67, 0xd1, 0xbd, 0xda, 0x58, 0x37, 0x3f, 0x09, 
0xfc, 0x73, 0xbe, 0x56, 0xb0, 0x2f, 0xbf, 0xa6, 
0x1d, 0x94, 0xbe, 0x20, 0xf8, 0xcc, 0xbd, 0xa6, 
0x00, 0xe5, 0x3e, 0x81, 0x64, 0x0f, 0xbf, 0xf6, 
0xfe, 0xff, 0xff, 0x04, 0x00, 0x00, 0x00, 0xa0, 
0x00, 0x00, 0x00, 0x9a, 0xb5, 0x44, 0xbe, 0xf0, 
0x38, 0x14, 0xbe, 0xd3, 0x49, 0x2e, 0x3f, 0xc6, 
0xca, 0x05, 0xbf, 0x54, 0xb4, 0xd5, 0x3e, 0x86, 
0x78, 0xe0, 0x3e, 0x98, 0xbc, 0x8d, 0x3e, 0xf6, 
0xc2, 0x0d, 0xbf, 0x3f, 0xdc, 0xb8, 0x3e, 0xfd, 
0xe9, 0xf0, 0xbd, 0xdb, 0xaf, 0x13, 0xbf, 0x9e, 
0xcc, 0x58, 0xbe, 0x27, 0x1f, 0x3d, 0x3f, 0xa4, 
0x3a, 0x25, 0x3f, 0x2b, 0x20, 0x18, 0x3d, 0x20, 
0xf0, 0x0a, 0x3f, 0x66, 0xa8, 0x24, 0xbf, 0xae, 
0xa4, 0x94, 0xbe, 0x8e, 0x4b, 0xe1, 0xbe, 0x39, 
0x85, 0xdb, 0xbd, 0x16, 0x44, 0x7a, 0x3e, 0xec, 
0xa1, 0x88, 0xbe, 0x43, 0x7f, 0xaa, 0xbe, 0x15, 
0x44, 0xfb, 0x3e, 0xe7, 0xf8, 0x8e, 0xbe, 0x42, 
0xcb, 0x11, 0x3f, 0xea, 0x09, 0x2f, 0x3f, 0xbe, 
0x7f, 0x50, 0x3e, 0x3b, 0x68, 0xb8, 0x3e, 0x9b, 
0xaf, 0x09, 0xbd, 0x95, 0x00, 0x0b, 0x3f, 0xf5, 
0xb4, 0xdd, 0xbe, 0x69, 0xbe, 0xfc, 0xbd, 0xa8, 
0xf0, 0xba, 0x3e, 0x2d, 0x29, 0xa6, 0xbe, 0xd9, 
0xd3, 0x75, 0x3e, 0x99, 0xcb, 0x19, 0x3f, 0x46, 
0xc5, 0x2b, 0x3f, 0x91, 0x99, 0x9e, 0xbe, 0x9c, 
0x92, 0x5f, 0x3e, 0xa2, 0xff, 0xff, 0xff, 0x04, 
0x00, 0x00, 0x00, 0x50, 0x00, 0x00, 0x00, 0x2a, 
0x93, 0x19, 0xbe, 0x2d, 0xa6, 0xea, 0xbe, 0xba, 
0x21, 0x93, 0x3f, 0x7a, 0x91, 0x9a, 0xbd, 0xa2, 
0x50, 0x2f, 0xbe, 0xb2, 0x2e, 0x39, 0x3d, 0xec, 
0xae, 0x47, 0x3f, 0x71, 0x92, 0x02, 0x3f, 0x0c, 
0xf8, 0x67, 0x3d, 0xc0, 0x0f, 0xe4, 0x3c, 0xdf, 
0x2c, 0x4d, 0xbe, 0x6a, 0x9e, 0x8d, 0xbe, 0x0c, 
0x46, 0xc6, 0x3d, 0xcf, 0x07, 0x3c, 0x3f, 0xdb, 
0xfa, 0x5a, 0xbe, 0x5a, 0x57, 0xcd, 0xbe, 0x21, 
0xed, 0x1d, 0xbe, 0xde, 0x6b, 0x0f, 0x3d, 0x67, 
0xb1, 0x9b, 0x3f, 0x9a, 0xc6, 0xbc, 0x3c, 0x00, 
0x00, 0x06, 0x00, 0x08, 0x00, 0x04, 0x00, 0x06, 
0x00, 0x00, 0x00, 0x04, 0x00, 0x00, 0x00, 0x04, 
0x00, 0x00, 0x00, 0x53, 0x65, 0xdd, 0x3e, 0xe4, 
0xfb, 0xff, 0xff, 0xe8, 0xfb, 0xff, 0xff, 0x0f, 
0x00, 0x00, 0x00, 0x4d, 0x4c, 0x49, 0x52, 0x20, 
0x43, 0x6f, 0x6e, 0x76, 0x65, 0x72, 0x74, 0x65, 
0x64, 0x2e, 0x00, 0x01, 0x00, 0x00, 0x00, 0x14, 
0x00, 0x00, 0x00, 0x00, 0x00, 0x0e, 0x00, 0x18, 
0x00, 0x14, 0x00, 0x10, 0x00, 0x0c, 0x00, 0x08, 
0x00, 0x04, 0x00, 0x0e, 0x00, 0x00, 0x00, 0x14, 
0x00, 0x00, 0x00, 0x1c, 0x00, 0x00, 0x00, 0xd0, 
0x00, 0x00, 0x00, 0xd4, 0x00, 0x00, 0x00, 0xd8, 
0x00, 0x00, 0x00, 0x04, 0x00, 0x00, 0x00, 0x6d, 
0x61, 0x69, 0x6e, 0x00, 0x00, 0x00, 0x00, 0x03, 
0x00, 0x00, 0x00, 0x78, 0x00, 0x00, 0x00, 0x34, 
0x00, 0x00, 0x00, 0x10, 0x00, 0x00, 0x00, 0x00, 
0x00, 0x0a, 0x00, 0x10, 0x00, 0x0c, 0x00, 0x08, 
0x00, 0x04, 0x00, 0x0a, 0x00, 0x00, 0x00, 0x0c, 
0x00, 0x00, 0x00, 0x10, 0x00, 0x00, 0x00, 0x01, 
0x00, 0x00, 0x00, 0x01, 0x00, 0x00, 0x00, 0x07, 
0x00, 0x00, 0x00, 0x01, 0x00, 0x00, 0x00, 0x06, 
0x00, 0x00, 0x00, 0xce, 0xff, 0xff, 0xff, 0x10, 
0x00, 0x00, 0x00, 0x00, 0x00, 0x00, 0x08, 0x0c, 
0x00, 0x00, 0x00, 0x10, 0x00, 0x00, 0x00, 0x8c, 
0xfc, 0xff, 0xff, 0x01, 0x00, 0x00, 0x00, 0x06, 
0x00, 0x00, 0x00, 0x03, 0x00, 0x00, 0x00, 0x05, 
0x00, 0x00, 0x00, 0x04, 0x00, 0x00, 0x00, 0x01, 
0x00, 0x00, 0x00, 0x00, 0x00, 0x0e, 0x00, 0x16, 
0x00, 0x00, 0x00, 0x10, 0x00, 0x0c, 0x00, 0x0b, 
0x00, 0x04, 0x00, 0x0e, 0x00, 0x00, 0x00, 0x18, 
0x00, 0x00, 0x00, 0x00, 0x00, 0x00, 0x08, 0x18, 
0x00, 0x00, 0x00, 0x1c, 0x00, 0x00, 0x00, 0x00, 
0x00, 0x06, 0x00, 0x08, 0x00, 0x07, 0x00, 0x06, 
0x00, 0x00, 0x00, 0x00, 0x00, 0x00, 0x01, 0x01, 
0x00, 0x00, 0x00, 0x05, 0x00, 0x00, 0x00, 0x03, 
0x00, 0x00, 0x00, 0x00, 0x00, 0x00, 0x00, 0x03, 
0x00, 0x00, 0x00, 0x02, 0x00, 0x00, 0x00, 0x01, 
0x00, 0x00, 0x00, 0x07, 0x00, 0x00, 0x00, 0x01, 
0x00, 0x00, 0x00, 0x00, 0x00, 0x00, 0x00, 0x08, 
0x00, 0x00, 0x00, 0xd0, 0x02, 0x00, 0x00, 0x60, 
0x02, 0x00, 0x00, 0xf4, 0x01, 0x00, 0x00, 0xac, 
0x01, 0x00, 0x00, 0x60, 0x01, 0x00, 0x00, 0xd8, 
0x00, 0x00, 0x00, 0x60, 0x00, 0x00, 0x00, 0x04, 
0x00, 0x00, 0x00, 0x66, 0xfd, 0xff, 0xff, 0x00, 
0x00, 0x00, 0x01, 0x14, 0x00, 0x00, 0x00, 0x1c, 
0x00, 0x00, 0x00, 0x1c, 0x00, 0x00, 0x00, 0x08, 
0x00, 0x00, 0x00, 0x34, 0x00, 0x00, 0x00, 0x02, 
0x00, 0x00, 0x00, 0xff, 0xff, 0xff, 0xff, 0x01, 
0x00, 0x00, 0x00, 0x50, 0xfd, 0xff, 0xff, 0x19, 
0x00, 0x00, 0x00, 0x53, 0x74, 0x61, 0x74, 0x65, 
0x66, 0x75, 0x6c, 0x50, 0x61, 0x72, 0x74, 0x69, 
0x74, 0x69, 0x6f, 0x6e, 0x65, 0x64, 0x43, 0x61, 
0x6c, 0x6c, 0x3a, 0x30, 0x00, 0x00, 0x00, 0x02, 
0x00, 0x00, 0x00, 0x01, 0x00, 0x00, 0x00, 0x01, 
0x00, 0x00, 0x00, 0xbe, 0xfd, 0xff, 0xff, 0x00, 
0x00, 0x00, 0x01, 0x14, 0x00, 0x00, 0x00, 0x1c, 
0x00, 0x00, 0x00, 0x1c, 0x00, 0x00, 0x00, 0x07, 
0x00, 0x00, 0x00, 0x50, 0x00, 0x00, 0x00, 0x02, 
0x00, 0x00, 0x00, 0xff, 0xff, 0xff, 0xff, 0x01, 
0x00, 0x00, 0x00, 0xa8, 0xfd, 0xff, 0xff, 0x34, 
0x00, 0x00, 0x00, 0x73, 0x65, 0x71, 0x75, 0x65, 
0x6e, 0x74, 0x69, 0x61, 0x6c, 0x2f, 0x64, 0x65, 
0x6e, 0x73, 0x65, 0x5f, 0x31, 0x2f, 0x4d, 0x61, 
0x74, 0x4d, 0x75, 0x6c, 0x3b, 0x73, 0x65, 0x71, 
0x75, 0x65, 0x6e, 0x74, 0x69, 0x61, 0x6c, 0x2f, 
0x64, 0x65, 0x6e, 0x73, 0x65, 0x5f, 0x31, 0x2f, 
0x42, 0x69, 0x61, 0x73, 0x41, 0x64, 0x64, 0x00, 
0x00, 0x00, 0x00, 0x02, 0x00, 0x00, 0x00, 0x01, 
0x00, 0x00, 0x00, 0x01, 0x00, 0x00, 0x00, 0x32, 
0xfe, 0xff, 0xff, 0x00, 0x00, 0x00, 0x01, 0x14, 
0x00, 0x00, 0x00, 0x1c, 0x00, 0x00, 0x00, 0x1c, 
0x00, 0x00, 0x00, 0x06, 0x00, 0x00, 0x00, 0x60, 
0x00, 0x00, 0x00, 0x02, 0x00, 0x00, 0x00, 0xff, 
0xff, 0xff, 0xff, 0x14, 0x00, 0x00, 0x00, 0x1c, 
0xfe, 0xff, 0xff, 0x46, 0x00, 0x00, 0x00, 0x73, 
0x65, 0x71, 0x75, 0x65, 0x6e, 0x74, 0x69, 0x61, 
0x6c, 0x2f, 0x64, 0x65, 0x6e, 0x73, 0x65, 0x2f, 
0x4d, 0x61, 0x74, 0x4d, 0x75, 0x6c, 0x3b, 0x73, 
0x65, 0x71, 0x75, 0x65, 0x6e, 0x74, 0x69, 0x61, 
0x6c, 0x2f, 0x64, 0x65, 0x6e, 0x73, 0x65, 0x2f, 
0x52, 0x65, 0x6c, 0x75, 0x3b, 0x73, 0x65, 0x71, 
0x75, 0x65, 0x6e, 0x74, 0x69, 0x61, 0x6c, 0x2f, 
0x64, 0x65, 0x6e, 0x73, 0x65, 0x2f, 0x42, 0x69, 
0x61, 0x73, 0x41, 0x64, 0x64, 0x00, 0x00, 0x02, 
0x00, 0x00, 0x00, 0x01, 0x00, 0x00, 0x00, 0x14, 
0x00, 0x00, 0x00, 0x22, 0xff, 0xff, 0xff, 0x00, 
0x00, 0x00, 0x01, 0x10, 0x00, 0x00, 0x00, 0x10, 
0x00, 0x00, 0x00, 0x05, 0x00, 0x00, 0x00, 0x28, 
0x00, 0x00, 0x00, 0x90, 0xfe, 0xff, 0xff, 0x19, 
0x00, 0x00, 0x00, 0x73, 0x65, 0x71, 0x75, 0x65, 
0x6e, 0x74, 0x69, 0x61, 0x6c, 0x2f, 0x64, 0x65, 
0x6e, 0x73, 0x65, 0x5f, 0x31, 0x2f, 0x4d, 0x61, 
0x74, 0x4d, 0x75, 0x6c, 0x00, 0x00, 0x00, 0x02, 
0x00, 0x00, 0x00, 0x01, 0x00, 0x00, 0x00, 0x14, 
0x00, 0x00, 0x00, 0x6a, 0xff, 0xff, 0xff, 0x00, 
0x00, 0x00, 0x01, 0x10, 0x00, 0x00, 0x00, 0x10, 
0x00, 0x00, 0x00, 0x04, 0x00, 0x00, 0x00, 0x24, 
0x00, 0x00, 0x00, 0xd8, 0xfe, 0xff, 0xff, 0x17, 
0x00, 0x00, 0x00, 0x73, 0x65, 0x71, 0x75, 0x65, 
0x6e, 0x74, 0x69, 0x61, 0x6c, 0x2f, 0x64, 0x65, 
0x6e, 0x73, 0x65, 0x2f, 0x4d, 0x61, 0x74, 0x4d, 
0x75, 0x6c, 0x00, 0x02, 0x00, 0x00, 0x00, 0x14, 
0x00, 0x00, 0x00, 0x02, 0x00, 0x00, 0x00, 0xae, 
0xff, 0xff, 0xff, 0x00, 0x00, 0x00, 0x01, 0x10, 
0x00, 0x00, 0x00, 0x10, 0x00, 0x00, 0x00, 0x03, 
0x00, 0x00, 0x00, 0x34, 0x00, 0x00, 0x00, 0x1c, 
0xff, 0xff, 0xff, 0x27, 0x00, 0x00, 0x00, 0x73, 
0x65, 0x71, 0x75, 0x65, 0x6e, 0x74, 0x69, 0x61, 
0x6c, 0x2f, 0x64, 0x65, 0x6e, 0x73, 0x65, 0x2f, 
0x42, 0x69, 0x61, 0x73, 0x41, 0x64, 0x64, 0x2f, 
0x52, 0x65, 0x61, 0x64, 0x56, 0x61, 0x72, 0x69, 
0x61, 0x62, 0x6c, 0x65, 0x4f, 0x70, 0x00, 0x01, 
0x00, 0x00, 0x00, 0x14, 0x00, 0x00, 0x00, 0x00, 
0x00, 0x16, 0x00, 0x18, 0x00, 0x14, 0x00, 0x00, 
0x00, 0x10, 0x00, 0x0c, 0x00, 0x08, 0x00, 0x00, 
0x00, 0x00, 0x00, 0x00, 0x00, 0x07, 0x00, 0x16, 
0x00, 0x00, 0x00, 0x00, 0x00, 0x00, 0x01, 0x10, 
0x00, 0x00, 0x00, 0x10, 0x00, 0x00, 0x00, 0x02, 
0x00, 0x00, 0x00, 0x38, 0x00, 0x00, 0x00, 0x84, 
0xff, 0xff, 0xff, 0x29, 0x00, 0x00, 0x00, 0x73, 
0x65, 0x71, 0x75, 0x65, 0x6e, 0x74, 0x69, 0x61, 
0x6c, 0x2f, 0x64, 0x65, 0x6e, 0x73, 0x65, 0x5f, 
0x31, 0x2f, 0x42, 0x69, 0x61, 0x73, 0x41, 0x64, 
0x64, 0x2f, 0x52, 0x65, 0x61, 0x64, 0x56, 0x61, 
0x72, 0x69, 0x61, 0x62, 0x6c, 0x65, 0x4f, 0x70, 
0x00, 0x00, 0x00, 0x01, 0x00, 0x00, 0x00, 0x01, 
0x00, 0x00, 0x00, 0x00, 0x00, 0x16, 0x00, 0x1c, 
0x00, 0x18, 0x00, 0x00, 0x00, 0x14, 0x00, 0x10, 
0x00, 0x0c, 0x00, 0x00, 0x00, 0x00, 0x00, 0x08, 
0x00, 0x07, 0x00, 0x16, 0x00, 0x00, 0x00, 0x00, 
0x00, 0x00, 0x01, 0x14, 0x00, 0x00, 0x00, 0x20, 
0x00, 0x00, 0x00, 0x20, 0x00, 0x00, 0x00, 0x01, 
0x00, 0x00, 0x00, 0x3c, 0x00, 0x00, 0x00, 0x02, 
0x00, 0x00, 0x00, 0xff, 0xff, 0xff, 0xff, 0x02, 
0x00, 0x00, 0x00, 0x04, 0x00, 0x04, 0x00, 0x04, 
0x00, 0x00, 0x00, 0x1d, 0x00, 0x00, 0x00, 0x73, 
0x65, 0x72, 0x76, 0x69, 0x6e, 0x67, 0x5f, 0x64, 
0x65, 0x66, 0x61, 0x75, 0x6c, 0x74, 0x5f, 0x64, 
0x65, 0x6e, 0x73, 0x65, 0x5f, 0x69, 0x6e, 0x70, 
0x75, 0x74, 0x3a, 0x30, 0x00, 0x00, 0x00, 0x02, 
0x00, 0x00, 0x00, 0x01, 0x00, 0x00, 0x00, 0x02, 
0x00, 0x00, 0x00, 0x02, 0x00, 0x00, 0x00, 0x20, 
0x00, 0x00, 0x00, 0x04, 0x00, 0x00, 0x00, 0xf4, 
0xff, 0xff, 0xff, 0x0e, 0x00, 0x00, 0x00, 0x00, 
0x00, 0x00, 0x0e, 0x0c, 0x00, 0x0c, 0x00, 0x0b, 
0x00, 0x00, 0x00, 0x00, 0x00, 0x04, 0x00, 0x0c, 
0x00, 0x00, 0x00, 0x09, 0x00, 0x00, 0x00, 0x00, 
0x00, 0x00, 0x09};

unsigned int converted_model_tflite_len = 1980;