#include "kws_perceptron.h"
const unsigned char converted_model_tflite[] = {0x1c,0x0,0x0,0x0,0x54,0x46,0x4c,0x33,0x14,0x0,0x20,0x0,0x1c,0x0,0x18,
0x0,0x14,0x0,0x10,0x0,0xc,0x0,0x0,0x0,0x8,0x0,0x4,0x0,0x14,0x0,
0x0,0x0,0x1c,0x0,0x0,0x0,0x84,0x0,0x0,0x0,0xdc,0x0,0x0,0x0,0x14,
0x2,0x0,0x0,0x24,0x2,0x0,0x0,0xe8,0x4,0x0,0x0,0x3,0x0,0x0,0x0,
0x1,0x0,0x0,0x0,0x4,0x0,0x0,0x0,0xa6,0xfd,0xff,0xff,0xc,0x0,0x0,
0x0,0x1c,0x0,0x0,0x0,0x38,0x0,0x0,0x0,0xf,0x0,0x0,0x0,0x73,0x65,
0x72,0x76,0x69,0x6e,0x67,0x5f,0x64,0x65,0x66,0x61,0x75,0x6c,0x74,0x0,0x1,
0x0,0x0,0x0,0x4,0x0,0x0,0x0,0x98,0xff,0xff,0xff,0x4,0x0,0x0,0x0,
0x4,0x0,0x0,0x0,0x5,0x0,0x0,0x0,0x64,0x65,0x6e,0x73,0x65,0x0,0x0,
0x0,0x1,0x0,0x0,0x0,0x4,0x0,0x0,0x0,0x6e,0xfe,0xff,0xff,0x4,0x0,
0x0,0x0,0xb,0x0,0x0,0x0,0x64,0x65,0x6e,0x73,0x65,0x5f,0x69,0x6e,0x70,
0x75,0x74,0x0,0x2,0x0,0x0,0x0,0x34,0x0,0x0,0x0,0x4,0x0,0x0,0x0,
0xdc,0xff,0xff,0xff,0x7,0x0,0x0,0x0,0x4,0x0,0x0,0x0,0x13,0x0,0x0,
0x0,0x43,0x4f,0x4e,0x56,0x45,0x52,0x53,0x49,0x4f,0x4e,0x5f,0x4d,0x45,0x54,
0x41,0x44,0x41,0x54,0x41,0x0,0x8,0x0,0xc,0x0,0x8,0x0,0x4,0x0,0x8,
0x0,0x0,0x0,0x6,0x0,0x0,0x0,0x4,0x0,0x0,0x0,0x13,0x0,0x0,0x0,
0x6d,0x69,0x6e,0x5f,0x72,0x75,0x6e,0x74,0x69,0x6d,0x65,0x5f,0x76,0x65,0x72,
0x73,0x69,0x6f,0x6e,0x0,0x8,0x0,0x0,0x0,0x34,0x1,0x0,0x0,0x2c,0x1,
0x0,0x0,0x18,0x1,0x0,0x0,0x98,0x0,0x0,0x0,0x90,0x0,0x0,0x0,0x88,
0x0,0x0,0x0,0x68,0x0,0x0,0x0,0x4,0x0,0x0,0x0,0x6,0xff,0xff,0xff,
0x4,0x0,0x0,0x0,0x54,0x0,0x0,0x0,0xc,0x0,0x0,0x0,0x8,0x0,0xe,
0x0,0x8,0x0,0x4,0x0,0x8,0x0,0x0,0x0,0x10,0x0,0x0,0x0,0x24,0x0,
0x0,0x0,0x0,0x0,0x6,0x0,0x8,0x0,0x4,0x0,0x6,0x0,0x0,0x0,0x4,
0x0,0x0,0x0,0x0,0x0,0x0,0x0,0x0,0x0,0xa,0x0,0x10,0x0,0xc,0x0,
0x8,0x0,0x4,0x0,0xa,0x0,0x0,0x0,0x2,0x0,0x0,0x0,0x2,0x0,0x0,
0x0,0x4,0x0,0x0,0x0,0x6,0x0,0x0,0x0,0x32,0x2e,0x31,0x35,0x2e,0x30,
0x0,0x0,0x66,0xff,0xff,0xff,0x4,0x0,0x0,0x0,0x10,0x0,0x0,0x0,0x31,
0x2e,0x31,0x34,0x2e,0x30,0x0,0x0,0x0,0x0,0x0,0x0,0x0,0x0,0x0,0x0,
0xc0,0xfc,0xff,0xff,0xc4,0xfc,0xff,0xff,0x8a,0xff,0xff,0xff,0x4,0x0,0x0,
0x0,0x68,0x0,0x0,0x0,0xb0,0x63,0xf6,0x3c,0x13,0xf6,0x45,0xbd,0xf1,0x41,
0x1a,0xbf,0x2d,0x1c,0x5b,0xbf,0x5c,0x4,0x27,0xbf,0x22,0x1f,0xc1,0x39,0xf,
0x3f,0x8a,0xbe,0xec,0xd5,0xf,0x3f,0x28,0x9f,0x99,0xbe,0x2b,0x9,0x7f,0xbf,
0x2a,0x17,0xfc,0xbe,0xf4,0xd0,0xeb,0xbe,0x30,0xf5,0x55,0xbf,0xb0,0x3d,0xdb,
0x3b,0xd6,0xbc,0xfe,0x3d,0x9a,0xfc,0x7,0x3c,0x2a,0x60,0xe5,0xbe,0x2,0xc4,
0x7,0x3e,0x1a,0x6b,0xf,0x3f,0xd9,0x58,0xef,0x3e,0x64,0xaf,0x15,0xbe,0xc8,
0xbd,0x3f,0xbd,0x70,0xeb,0x93,0xbf,0x5a,0x93,0x9d,0x3e,0x9e,0xfb,0x2d,0xbe,
0x36,0x62,0x60,0xbe,0x0,0x0,0x6,0x0,0x8,0x0,0x4,0x0,0x6,0x0,0x0,
0x0,0x4,0x0,0x0,0x0,0x4,0x0,0x0,0x0,0xfd,0xb0,0x88,0x3e,0x54,0xfd,
0xff,0xff,0x58,0xfd,0xff,0xff,0xf,0x0,0x0,0x0,0x4d,0x4c,0x49,0x52,0x20,
0x43,0x6f,0x6e,0x76,0x65,0x72,0x74,0x65,0x64,0x2e,0x0,0x1,0x0,0x0,0x0,
0x14,0x0,0x0,0x0,0x0,0x0,0xe,0x0,0x18,0x0,0x14,0x0,0x10,0x0,0xc,
0x0,0x8,0x0,0x4,0x0,0xe,0x0,0x0,0x0,0x14,0x0,0x0,0x0,0x1c,0x0,
0x0,0x0,0x90,0x0,0x0,0x0,0x94,0x0,0x0,0x0,0x98,0x0,0x0,0x0,0x4,
0x0,0x0,0x0,0x6d,0x61,0x69,0x6e,0x0,0x0,0x0,0x0,0x2,0x0,0x0,0x0,
0x44,0x0,0x0,0x0,0x10,0x0,0x0,0x0,0x0,0x0,0xa,0x0,0x10,0x0,0xc,
0x0,0x8,0x0,0x4,0x0,0xa,0x0,0x0,0x0,0xc,0x0,0x0,0x0,0x10,0x0,
0x0,0x0,0x1,0x0,0x0,0x0,0x1,0x0,0x0,0x0,0x4,0x0,0x0,0x0,0x1,
0x0,0x0,0x0,0x3,0x0,0x0,0x0,0x0,0x0,0xe,0x0,0x14,0x0,0x0,0x0,
0x10,0x0,0xc,0x0,0xb,0x0,0x4,0x0,0xe,0x0,0x0,0x0,0x10,0x0,0x0,
0x0,0x0,0x0,0x0,0x8,0xc,0x0,0x0,0x0,0x10,0x0,0x0,0x0,0x8,0xfe,
0xff,0xff,0x1,0x0,0x0,0x0,0x3,0x0,0x0,0x0,0x3,0x0,0x0,0x0,0x0,
0x0,0x0,0x0,0x2,0x0,0x0,0x0,0x1,0x0,0x0,0x0,0x1,0x0,0x0,0x0,
0x4,0x0,0x0,0x0,0x1,0x0,0x0,0x0,0x0,0x0,0x0,0x0,0x5,0x0,0x0,
0x0,0xa0,0x1,0x0,0x0,0x34,0x1,0x0,0x0,0xd4,0x0,0x0,0x0,0x60,0x0,
0x0,0x0,0x4,0x0,0x0,0x0,0x8a,0xfe,0xff,0xff,0x0,0x0,0x0,0x1,0x14,
0x0,0x0,0x0,0x1c,0x0,0x0,0x0,0x1c,0x0,0x0,0x0,0x5,0x0,0x0,0x0,
0x34,0x0,0x0,0x0,0x2,0x0,0x0,0x0,0xff,0xff,0xff,0xff,0x1,0x0,0x0,
0x0,0x74,0xfe,0xff,0xff,0x19,0x0,0x0,0x0,0x53,0x74,0x61,0x74,0x65,0x66,
0x75,0x6c,0x50,0x61,0x72,0x74,0x69,0x74,0x69,0x6f,0x6e,0x65,0x64,0x43,0x61,
0x6c,0x6c,0x3a,0x30,0x0,0x0,0x0,0x2,0x0,0x0,0x0,0x1,0x0,0x0,0x0,
0x1,0x0,0x0,0x0,0xe2,0xfe,0xff,0xff,0x0,0x0,0x0,0x1,0x14,0x0,0x0,
0x0,0x1c,0x0,0x0,0x0,0x1c,0x0,0x0,0x0,0x4,0x0,0x0,0x0,0x4c,0x0,
0x0,0x0,0x2,0x0,0x0,0x0,0xff,0xff,0xff,0xff,0x1,0x0,0x0,0x0,0xcc,
0xfe,0xff,0xff,0x30,0x0,0x0,0x0,0x73,0x65,0x71,0x75,0x65,0x6e,0x74,0x69,
0x61,0x6c,0x2f,0x64,0x65,0x6e,0x73,0x65,0x2f,0x4d,0x61,0x74,0x4d,0x75,0x6c,
0x3b,0x73,0x65,0x71,0x75,0x65,0x6e,0x74,0x69,0x61,0x6c,0x2f,0x64,0x65,0x6e,
0x73,0x65,0x2f,0x42,0x69,0x61,0x73,0x41,0x64,0x64,0x0,0x0,0x0,0x0,0x2,
0x0,0x0,0x0,0x1,0x0,0x0,0x0,0x1,0x0,0x0,0x0,0xba,0xff,0xff,0xff,
0x0,0x0,0x0,0x1,0x10,0x0,0x0,0x0,0x10,0x0,0x0,0x0,0x3,0x0,0x0,
0x0,0x24,0x0,0x0,0x0,0x2c,0xff,0xff,0xff,0x17,0x0,0x0,0x0,0x73,0x65,
0x71,0x75,0x65,0x6e,0x74,0x69,0x61,0x6c,0x2f,0x64,0x65,0x6e,0x73,0x65,0x2f,
0x4d,0x61,0x74,0x4d,0x75,0x6c,0x0,0x2,0x0,0x0,0x0,0x1,0x0,0x0,0x0,
0x1a,0x0,0x0,0x0,0x0,0x0,0x16,0x0,0x18,0x0,0x14,0x0,0x0,0x0,0x10,
0x0,0xc,0x0,0x8,0x0,0x0,0x0,0x0,0x0,0x0,0x0,0x7,0x0,0x16,0x0,
0x0,0x0,0x0,0x0,0x0,0x1,0x10,0x0,0x0,0x0,0x10,0x0,0x0,0x0,0x2,
0x0,0x0,0x0,0x34,0x0,0x0,0x0,0x88,0xff,0xff,0xff,0x27,0x0,0x0,0x0,
0x73,0x65,0x71,0x75,0x65,0x6e,0x74,0x69,0x61,0x6c,0x2f,0x64,0x65,0x6e,0x73,
0x65,0x2f,0x42,0x69,0x61,0x73,0x41,0x64,0x64,0x2f,0x52,0x65,0x61,0x64,0x56,
0x61,0x72,0x69,0x61,0x62,0x6c,0x65,0x4f,0x70,0x0,0x1,0x0,0x0,0x0,0x1,
0x0,0x0,0x0,0x0,0x0,0x16,0x0,0x1c,0x0,0x18,0x0,0x0,0x0,0x14,0x0,
0x10,0x0,0xc,0x0,0x0,0x0,0x0,0x0,0x8,0x0,0x7,0x0,0x16,0x0,0x0,
0x0,0x0,0x0,0x0,0x1,0x14,0x0,0x0,0x0,0x20,0x0,0x0,0x0,0x20,0x0,
0x0,0x0,0x1,0x0,0x0,0x0,0x3c,0x0,0x0,0x0,0x2,0x0,0x0,0x0,0xff,
0xff,0xff,0xff,0x1a,0x0,0x0,0x0,0x4,0x0,0x4,0x0,0x4,0x0,0x0,0x0,
0x1d,0x0,0x0,0x0,0x73,0x65,0x72,0x76,0x69,0x6e,0x67,0x5f,0x64,0x65,0x66,
0x61,0x75,0x6c,0x74,0x5f,0x64,0x65,0x6e,0x73,0x65,0x5f,0x69,0x6e,0x70,0x75,
0x74,0x3a,0x30,0x0,0x0,0x0,0x2,0x0,0x0,0x0,0x1,0x0,0x0,0x0,0x1a,
0x0,0x0,0x0,0x2,0x0,0x0,0x0,0x20,0x0,0x0,0x0,0x4,0x0,0x0,0x0,
0xf4,0xff,0xff,0xff,0xe,0x0,0x0,0x0,0x0,0x0,0x0,0xe,0xc,0x0,0xc,
0x0,0xb,0x0,0x0,0x0,0x0,0x0,0x4,0x0,0xc,0x0,0x0,0x0,0x9,0x0,
0x0,0x0,0x0,0x0,0x0,0x9,
};
const unsigned int converted_model_tflite_len = 1356;